#version: 0.2
č Ċ
Ġ čĊ
e s
i n
Ġ a
o n
a t
o r
e r
r e
i on
Ġ t
Ġ s
Ġ -
in g
e n
Ġ c
r o
i t
Ġ A
e m
a n
e d
Ġ d
Ġ S
s t
i c
Ġ p
c t
en t
a l
at ion
Ġ o
at a
Ġa n
Ġ D
u t
e t
Ġ m
i s
Ġ f
h e
es s
Ġ C
l e
a r
Ġ T
u r
Ġ in
Ġan d
Ġ e
Ġ re
Ġo f
c h
Ġ b
Ġp ro
Ġ is
o m
a g
a s
Ġd ata
r a
u s
Ġ P
l o
Ġ I
Ġ R
Ġt o
Ġt he
y st
Ġ M
yst em
et w
c ess
Ġ n
Ġ O
Ġc on
i m
d e
u n
Ġ L
e c
Ġs t
Ġ 1
or k
Ġ F
it y
p er
Ġ N
u l
etw ork
Ġf or
c k
Ġ 2
Ġ E
ĠD ata
c e
l y
Ġ us
em ent
as e
i d
Ġ w
ct ion
it h
q u
Ġ l
Ġ 3
Ġd e
om p
b ase
ation s
o de
t er
v ic
Ġ (
ĠI n
i z
an ag
a in
i v
Ġ B
Ġa re
at ing
er s
g or
r es
Ġ h
ĠS ystem
a d
e ct
i l
i p
i st
l gor
p l
t r
or t
Ġs ystem
ith m
lgor ithm
i r
o ur
Ġe x
or m
Ġt h
ĠT he
per ating
a b
d d
g ra
Ġ U
Ġ or
or y
i g
o l
o t
ĠP ro
i b
r ess
u ct
Ġ on
Ġa t
Ġpro cess
a ck
Ġcon t
vic es
a y
a ch
Ġ 4
em ory
ic al
ic ation
Ġre l
Ġn etwork
ĠN etwork
dd ress
a m
e ar
r an
t o
Ġ res
Ġc omp
ag e
im e
Ġst or
gra m
a re
i es
l ement
ur es
om m
ode l
f f
Ġa c
at e
ĠC on
ec ut
id es
e l
h er
i re
y p
es t
ec ur
ul t
ĠData base
Ġex ecut
o v
u re
v ides
ĠA lgorithm
ut er
Ġm anag
ar y
Ġe lement
Ġb y
qu e
Ġth at
ay er
ran s
e y
u e
Ġa l
Ġa ddress
ro l
lo ck
ĠR o
p pl
Ġ un
ĠD e
Ġm emory
Ġpro gram
Ġpro vides
Ġdata base
lo g
ĠO perating
ĠL in
Ġde vices
Ġres our
ecur ity
w are
Ġa s
or d
Ġt ime
an d
Ġcon n
Ġst r
ir st
ĠU s
c es
e g
f orm
u b
u p
Ġ v
at ed
an t
al l
ĠC omp
Ġe ach
ĠM anag
Ġus ing
iz ation
Ġac cess
yp es
e en
i f
r im
y s
Ġ ent
Ġt rans
ĠA n
ut h
Ġre c
Ġb etw
lo c
ĠE x
iv e
ab le
ff ic
Ġconn ect
Ġstr uct
ĠManag ement
Ġbetw een
B M
h ip
m ent
p t
Ġ 5
Ġ H
Ġa r
re e
Ġs h
Ġm odel
ĠT ypes
ag es
Ġn ode
un d
per ations
ations hip
tr ib
ig n
ĠPro cess
Ġcont rol
ear ch
ĠUs ed
BM S
trib ut
A N
a it
a ction
e ch
f t
i ent
i le
i que
m in
p le
t ion
Ġa lgorithm
en d
ĠS t
Ġo perating
ar d
Ġus ed
tr uct
Ġat tribut
omm un
N F
a st
c y
g e
k ed
k ey
o log
p h
p ort
w s
Ġ K
Ġ W
Ġa ppl
Ġs er
an ce
Ġd ire
ĠS truct
ut ing
Ġin ter
Ġre p
Ġb e
ĠI P
ĠR el
ĠL ayer
ĠE n
Ġw ith
ad lock
ip le
Ġcomp uter
Ġresour ces
Ġv al
ffic ient
Ġstruct ure
ommun ication
P U
h ys
o us
p ut
p olog
s ist
u es
v e
v ant
Ġ G
Ġ Q
Ġ key
Ġs e
Ġs ecurity
Ġc an
it ion
ed ul
ent s
ĠD BMS
Ġm ain
Ġm ult
ĠC PU
le x
Ġin to
ch edul
ra y
ĠI t
de x
ĠF irst
vic e
il es
her e
loc ation
ĠStruct ures
hys ical
vant ages
chedul ing
a ce
d er
l es
u m
v ers
Ġs ort
Ġc ommunication
ĠA d
an g
ĠS earch
ic ations
Ġp o
ĠD is
ĠC omm
ar ing
Ġe fficient
ĠM odel
ĠO S
Ġw ait
Ġw here
Ġl ar
iz ed
ain s
orm al
Ġon e
Ġstor ed
ĠCon t
Ġexecut ion
ĠAlgorithm s
Ġprogram s
uth or
ĠEx am
ech n
Ġval ues
polog y
Q L
T P
a c
a p
d u
e ction
g an
l et
m ing
o ft
p on
s er
u al
v er
w o
Ġ ro
er form
er min
re a
Ġc h
Ġc ol
ro m
it ive
ĠA rea
Ġd es
ĠS ort
Ġf iles
Ġf rom
ĠC h
lo ws
ĠR e
Ġcon sist
ĠN ormal
Ġl in
Ġor gan
Ġrel ation
Ġmanag es
ĠDe adlock
ĠLin ked
rim ary
Ġent ity
Ġrec ord
Ġconnect ed
Ġdire ct
ang u
pon s
ser tion
) :
F S
a ct
b l
c l
c r
d es
e x
i al
i de
j ect
p en
p ro
t s
u ch
Ġ r
Ġt wo
en ce
Ġc re
Ġc all
it e
ĠA l
Ġd et
Ġd iv
ĠS ecurity
ĠS cheduling
Ġp hysical
Ġp erform
Ġo perations
ra vers
ĠM emory
ĠL ist
Ġus ers
Ġl ayer
ig h
Ġprocess es
Ġstor age
Ġaddress es
eg ment
form ation
ard ware
Ġattribut es
ĠK ey
ĠRel ationship
Ġmult iple
Ġwait ing
oft ware
angu age
bl em
ravers al
c ur
c ul
c ol
e p
f in
n e
o w
s e
s ion
t eg
u st
u ous
y n
Ġ g
Ġ en
Ġ id
in ary
in ts
on g
er y
re n
re ad
Ġt ree
Ġt echn
Ġs p
Ġs uch
en cy
it ies
ĠA r
ĠA ddress
ĠA ppl
ent if
Ġo t
ĠC our
le ction
ĠT o
ĠT raversal
Ġre m
Ġre qu
Ġb lock
ra ph
us ion
Ġn o
ĠO perations
im ple
un ction
ĠL anguage
ĠF ile
ĠE ach
Ġus er
Ġde vice
Ġde let
ĠIn dex
res ents
ect s
il d
pl es
Ġsystem s
ĠU n
Ġor der
ib le
Ġrel ationship
to col
ue ue
Ġal l
Ġal lows
ĠRo uting
Ġun a
Ġun ique
Ġresour ce
ĠComp uter
Ġtrans action
Ġconnect s
Ġappl ications
Ġser vices
Ġinter f
Ġrep resents
ĠG raph
ĠQ ueue
Ġmain t
lex ity
ĠAd vantages
ex t
ĠAl location
Ġid entif
tocol s
( )
A C
T E
c cess
i e
i qu
k e
l d
o id
r ity
s ures
v es
v ing
v oid
w it
Ġ he
Ġ le
Ġ im
Ġ log
Ġ up
at es
at or
or e
er ent
Ġt able
Ġs oftware
ĠA ccess
ĠA void
an y
ĠS ub
ĠS QL
st ra
Ġp r
Ġp rimary
ct s
ent ication
et ter
ess ion
ĠT h
ĠT ime
ĠT ree
Ġin formation
Ġpro t
Ġpro blem
as k
ĠI m
ĠR es
Ġto pology
ĠM ult
ĠL e
ĠF orm
ĠIn sertion
iz e
Ġh ardware
il ity
ir cul
ab les
ab ility
gra ph
Ġon ly
Ġcont ains
Ġrel i
Ġrel ated
Ġnetwork s
ĠNetwork s
Ġres pons
Ġmanag ing
Ġelement s
que ue
Ġaddress ing
Ġas s
rim itive
Ġent ities
uth entication
Ġar ray
Ġsh aring
ĠSt ack
Ġattribut e
Ġwith in
Ġse le
Ġpo s
ĠDis k
Ġefficient ly
Ġlar g
ĠCont rol
uthor ized
ĠExam ples
du ction
Ġro uting
Ġdes ign
cl usion
Ġperform ance
teg rity
ĠAr ray
Ġot her
ĠCour se
Ġrem ov
Ġno des
Ġdelet ion
Ġuna uthorized
Ġunique ly
Ġinterf ace
iqu es
wit ch
ircul ar
C P
D ata
O S
T TP
a il
c i
c cur
d ition
g es
h o
h ing
h aring
i x
i or
i ff
l ing
m s
m all
n et
o st
o un
p end
r on
r or
r ator
s ive
t ro
t ies
u x
v ed
v el
Ġ if
es ter
in ter
on d
or st
Ġs ol
Ġs earch
Ġs egment
Ġs mall
en ess
it s
ĠA t
em ov
em ester
an ip
Ġd iff
ĠS e
ĠS er
ĠS ec
ĠS imple
ĠS emester
ent ial
Ġo ccur
ĠD yn
ut put
et s
Ġm ust
Ġm ore
Ġf irst
Ġf ile
ĠC ase
ĠT rans
Ġin dex
Ġin tegrity
Ġre tr
Ġb as
Ġb ack
ĠR igh
ĠR emov
ĠM AC
Ġn on
Ġn ext
ĠO ne
ĠL AN
Ġst ack
Ġst ate
ĠF ast
per ties
ĠN o
ĠN ot
ce pt
qu ence
ĠIn ter
ĠIn tro
ĠB ack
ĠB inary
ĠB etter
Ġh a
Ġh al
Ġh as
Ġh and
ad vantages
ist rator
pl ac
our ce
Ġth em
ig uous
ĠPro gram
am ic
ran g
Ġstor ing
ĠCon clusion
yp tion
Ġexecut es
ov ery
ĠRo ot
ĠLin ear
ĠLin ux
ĠComp lexity
ĠH TTP
Ġsh are
Ġcontrol s
min istrator
Ġappl ication
Ġrep e
ĠIP v
ĠQ u
um n
ĠDis advantages
ĠComm on
ĠComm and
Ġlar ge
uthor ization
ĠExam ple
ap ter
Ġch ild
Ġcol lection
Ġcol umn
ĠCh apter
Ġorgan iz
Ġrelation al
cr yption
Ġcall ed
Ġdiv id
Ġtechn ique
ĠTo pology
Ġblock s
Ġrelationship s
Ġidentif ies
Ġlog ical
Ġup d
ĠSub ject
stra ints
ĠLe ft
Ġass ign
Ġsele cts
Ġpos ition
Ġlarg er
ix ed
ior ity
anip ul
Ġdiff erent
ĠDyn amic
Ġretr ie
ĠRigh t
ĠIntro duction
' s
A TE
C B
C FS
D BMS
F O
I D
I P
I FO
L L
N I
N S
S T
b in
b ject
c al
c ord
d s
e w
f er
i er
l in
n ing
n ot
o ut
o und
p s
r al
r ror
t ity
t ack
u d
u g
v ide
w ard
Â ²
Ġ V
Ġ ut
Ġ lo
Ġ loc
Ġ end
Ġ graph
Ġ queue
Ġa ro
at ch
or re
er ge
Ġt ables
Ġs ing
Ġs et
Ġs ub
Ġs cheduling
Ġs witch
Ġc ent
Ġc ur
Ġc able
Ġc orre
ro ug
it ask
ĠA dd
ĠA uthentication
em pt
an is
an cy
ĠS egment
ĠS ession
ic e
ic s
Ġp l
Ġp re
Ġp ack
Ġp age
ent ly
al ies
al ys
Ġan om
Ġan ot
ĠD i
ĠD et
ut ers
Ġm a
Ġm ov
Ġm ech
Ġf in
Ġf unction
Ġf ixed
ĠC re
ĠC all
ĠC ircular
ar ch
ar act
ĠT echn
ĠT CP
Ġin de
Ġin put
Ġin sertion
Ġre al
Ġre ad
Ġpro tocols
om e
as s
ĠP re
ĠP hysical
ĠR ec
ĠR ecur
Ġto p
ĠM erge
Ġn ot
ĠO ut
ĠO pen
un ning
ec if
Ġst ep
ĠF unction
ĠN on
Ġfor ward
ĠE lement
ĠE rror
Ġus es
id ate
Ġw h
Ġw r
Ġl ist
Ġde adlock
Ġare a
ers on
Ġh ow
ĠSystem s
il ization
Ġex ist
Ġth roug
ĠU NI
ot h
ĠPro tocols
ib es
Ġcont in
Ġcont ain
ical ly
am e
Ġcomp lex
Ġcomp uters
Ġac cord
ire d
ire ct
est s
Ġexecut e
Ġmanag ement
Ġal location
Ġprogram ming
ord er
and idate
up port
ated ly
Ġtrans m
Ġstruct ures
pt im
Ġar rang
Ġmodel s
und ancy
Ġcontrol ling
ĠSt ud
port ant
ĠW ait
ĠW orst
Ġdire ction
Ġinter action
ĠRel ation
ĠEn sures
ĠEn cryption
ĠEn tity
Ġwith out
Ġse quence
Ġsort ed
ĠAd ministrator
ĠSearch ing
ver age
ermin es
Ġdes cr
ĠCh aract
Ġconsist s
Ġconsist ing
ĠNormal ization
Ġlin ear
Ġlin ked
Ġorgan ized
Ġrecord s
Ġdirect ly
Ġdirect ory
Ġcre ate
Ġcall s
ren t
Ġsp ecif
ĠAppl ication
ĠAppl ications
Ġrequ ired
Ġmaint ains
Ġprot ects
Ġproblem s
ĠRes pons
Ġreli able
Ġrespons ible
Ġdesign ing
Ġremov ed
inter s
ond ary
Ġbas ed
ĠRemov ing
ĠNot ation
ĠInter net
ĠBack up
Ġha ve
Ġhal ves
Ġhand les
Ġrepe atedly
ĠCommand s
ier arch
Ġut ilization
Ġaro und
Ġsing le
Ġcent ral
Ġcur rent
Ġcorre ct
itask ing
ĠAdd ing
anis ms
ĠSegment ation
Ġpack ets
alys is
Ġanom alies
Ġanot her
Ġmech anisms
ĠCall s
ĠTechn iques
ĠElement s
Ġaccord ing
Ġdescr ibes
ĠCharact er
Ġspecif ic
B A
C L
C AN
C NF
C ID
E C
E L
E R
E Y
F irst
J F
M TP
M any
R E
R U
S QL
U LL
a f
a cy
b on
b it
b le
c on
c le
c ase
c iple
d o
d ges
d undancy
e k
e ed
e as
e ous
f ter
h is
h ort
h ment
i ed
i ous
i ke
j or
k es
l is
l ps
m eg
m pt
m oun
n t
o b
o p
o s
o ul
o graph
o cal
p ing
p ol
p ace
p pro
r u
r iv
r iority
s y
s ize
s haring
t h
t ing
t ra
t ree
t end
t ual
u ation
u per
u des
v en
v ent
v al
w or
w ay
Ġ 6
Ġ ed
Ġ ess
Ġ est
Ġ ge
es h
in im
in ciple
Ġa d
Ġa uthentication
Ġa uthorization
Ġa fter
Ġa moun
Ġa ppro
on ents
on ac
at h
at ically
er ing
re es
re ed
Ġt ra
Ġt ypes
Ġt ermin
Ġt ask
Ġs l
Ġs im
Ġs ec
Ġs imple
Ġs ession
Ġs ize
Ġs ource
en ance
Ġc he
Ġc ov
Ġc ables
Ġc ircular
Ġc oun
Ġc andidate
ro gram
ro pol
it an
it eness
ĠA uthorization
ĠA verage
ĠA CID
ĠA sy
an ge
an eous
ĠS oftware
ĠS witch
ĠS haring
ĠS upport
ĠS MTP
ĠS pace
st and
st ru
ic k
ic t
ic es
Ġp iv
Ġp ages
Ġp ath
ent al
ent ation
al s
al ware
Ġo pen
Ġo utput
Ġo bject
Ġo ptim
Ġan alysis
ĠD o
ĠD el
ĠD NS
ĠD irect
ut es
ut om
et a
et her
et ho
et ropol
Ġm an
Ġm anipul
Ġm eas
is sion
Ġf ra
Ġf ul
Ġf our
Ġf ol
Ġf und
Ġf act
Ġf ail
Ġf ron
ĠC ommunication
ar t
ĠT ermin
ur ing
ur sion
Ġin cl
Ġin stru
Ġe as
Ġe ver
Ġre ar
Ġre du
Ġre plac
Ġre dundancy
ch ron
Ġb ro
Ġb ut
Ġb est
Ġb inary
Ġb ound
Ġb atch
Ġb oth
Ġpro perties
om ic
om ain
ag ing
as hing
ra cle
ĠP e
ĠP age
ĠP AN
ĠP rimary
ĠP rimitive
ĠP ost
ĠP CB
ĠP ass
ĠP erson
ĠP his
ĠP riority
ĠP aging
lo w
ĠR ed
ĠR unning
Ġthe ir
ĠM a
ĠM ain
ĠM anipul
ĠM alware
cess ary
Ġn um
ĠO meg
ĠO racle
Ġcon dition
Ġcon cept
Ġcon straints
ĠL ong
ĠF in
ĠF ib
ĠF iles
ĠF TP
ĠF CFS
ĠF IFO
ĠN ULL
ul es
Ġfor m
ck s
ĠE m
ĠE fficient
ĠE dges
ement ation
Ġw ork
qu ential
Ġl im
Ġl ay
Ġl ast
Ġde fin
Ġde pend
ĠIn put
ĠIn formation
iv es
iv eness
ĠB o
ĠB ig
ĠB est
ĠB ub
ers ion
res entation
Ġh ub
Ġh igh
Ġh ierarch
ad s
ip rogram
ist ics
pl ementation
ir tual
Ġex am
Ġth an
ab lis
ot ic
ĠPro vides
ĠPro perties
ĠPro vide
ress ion
Ġprocess ing
Ġnetwork ing
am ental
Ġcomp let
Ġcomp lexity
Ġstor es
are nt
ff ect
Ġac cur
ate way
ĠCon sist
ĠCon dition
ĠCon straints
ult aneous
Ġexecut ed
ure d
Ġmanag e
Ġal read
ĠRo und
ĠRo bin
ĠRo utes
Ġun it
ĠDe vice
ĠDe fin
Ġconn ection
ĠUs ers
Ġv ersion
ĠComp onents
Ġtrans fer
Ġrec overy
Ġrec ursion
ffic ult
ĠH ardware
ĠH ashing
Ġar m
Ġar riv
Ġsh oul
ĠK EY
ĠW AN
Ġser ved
Ġcan not
Ġmult itasking
der stand
Ġpo ints
Ġpo inters
ĠModel s
ĠOS I
ĠCont ext
ĠCont iguous
ap s
ual ly
ĠSort ing
ĠRe qu
ĠRe ad
ĠRe plac
Ġconsist ency
pen sive
pro ved
Ġr ing
Ġcre ating
Ġdet ection
Ġdet ects
Ġdet ermines
Ġdiv ides
Ġperform ed
ĠKey s
ep s
yn chron
Ġg ro
Ġen s
Ġen sures
Ġtechn iques
Ġsp ace
Ġrequ ests
ĠIndex ing
ĠUn ique
ĠUn derstand
Ġmaint ain
Ġidentif y
Ġhe ld
Ġhe lps
Ġle ast
Ġle vel
Ġim pro
Ġim plementation
Ġpr iority
Ġpr inciple
ĠTh read
ĠTh eta
ĠIm portant
ĠIm proved
ĠMult iple
Ġreli ability
Ġremov e
Ġsol ve
Ġsmall est
ĠAt tack
ĠSe lection
ĠSec ure
Ġoccur s
ĠTrans action
ĠTrans port
Ġback bon
ĠFast er
ĠQu ery
ĠQu ick
Ġchild ren
Ġorganiz es
Ġorganiz ing
Ġdivid ing
Ġdivid ed
Ġupd ate
Ġupd ated
Ġassign s
Ġassign ed
Ġretrie ve
lin ear
ĠV irtual
Ġloc al
Ġsub tree
ĠDi fficult
ĠDet ection
Ġmov es
Ġfin ite
ĠCre ated
Ġinde pend
ĠRec overy
ĠRecur sion
ĠFunction s
Ġforward s
Ġwh ile
Ġexist s
Ġthroug h
ĠUNI X
Ġcontin uous
Ġtransm ission
Ġarrang ed
ĠStud ent
ĠRelation al
ĠRespons ible
ĠCharacter istics
con n
hort est
mpt otic
os ite
wor ld
Ġed ges
Ġess ential
Ġest ablis
Ġge ograph
inim um
Ġamoun t
Ġappro ach
onac ci
reed y
Ġtra vel
Ġtask s
Ġsim ultaneous
Ġsec ondary
Ġche cks
Ġcov ers
ĠAsy mptotic
ĠSupport s
Ġpiv ot
ĠDel et
utom atically
etho ds
etropol itan
Ġmanipul ate
Ġmeas ures
Ġfra m
Ġful ly
Ġfol lows
Ġfund amental
Ġfron t
Ġincl udes
Ġinstru ction
Ġever y
Ġreplac ed
ĠPhis hing
ĠMain t
ĠManipul ation
ĠOmeg a
ĠFib onacci
Ġlay ers
ĠBub ble
iprogram ming
Ġcomplet ed
Ġaccur acy
ĠConsist ency
Ġalread y
Ġarriv al
Ġshoul d
ĠReplac ement
ynchron ization
ĠUnderstand ing
Ġbackbon e
Ġestablis hment
Ġsimultaneous ly
